<unk>	0
<s>	0
</s>	0
<pad>	0
▁t	-0
▁a	-1
he	-2
in	-3
on	-4
▁the	-5
re	-6
ti	-7
▁o	-8
er	-9
en	-10
▁s	-11
al	-12
▁c	-13
an	-14
es	-15
is	-16
▁of	-17
ed	-18
▁p	-19
▁an	-20
▁in	-21
or	-22
at	-23
▁w	-24
ar	-25
▁m	-26
▁b	-27
ic	-28
tion	-29
▁and	-30
it	-31
▁f	-32
ro	-33
ing	-34
▁d	-35
▁to	-36
le	-37
▁e	-38
as	-39
ol	-40
om	-41
ent	-42
▁re	-43
st	-44
ation	-45
ch	-46
el	-47
▁h	-48
▁th	-49
ou	-50
▁l	-51
ce	-52
▁n	-53
ci	-54
ra	-55
et	-56
ct	-57
▁T	-58
ly	-59
▁A	-60
▁is	-61
▁g	-62
ve	-63
ur	-64
us	-65
▁as	-66
ul	-67
il	-68
im	-69
tic	-70
un	-71
og	-72
▁be	-73
id	-74
▁for	-75
▁pro	-76
em	-77
▁con	-78
▁st	-79
▁I	-80
ot	-81
os	-82
▁that	-83
ri	-84
ist	-85
▁The	-86
ut	-87
▁S	-88
▁on	-89
od	-90
ith	-91
ver	-92
ow	-93
am	-94
op	-95
ir	-96
her	-97
▁su	-98
▁ex	-99
▁1	-100
▁by	-101
▁de	-102
um	-103
th	-104
▁al	-105
ig	-106
▁or	-107
ter	-108
▁with	-109
▁wh	-110
qu	-111
▁(	-112
ical	-113
▁C	-114
olog	-115
▁are	-116
ere	-117
▁com	-118
se	-119
pl	-120
pe	-121
ud	-122
ge	-123
ment	-124
▁ma	-125
▁M	-126
ion	-127
▁it	-128
ces	-129
ure	-130
▁mo	-131
▁E	-132
▁B	-133
ction	-134
ab	-135
ate	-136
if	-137
rom	-138
▁P	-139
▁In	-140
ity	-141
ers	-142
▁v	-143
▁G	-144
▁was	-145
ad	-146
du	-147
ich	-148
and	-149
▁us	-150
▁en	-151
▁un	-152
▁from	-153
ant	-154
▁R	-155
ies	-156
ations	-157
res	-158
oci	-159
ence	-160
▁at	-161
▁which	-162
▁"	-163
▁F	-164
▁H	-165
ine	-166
▁W	-167
iv	-168
ated	-169
▁int	-170
oc	-171
ther	-172
ans	-173
tive	-174
▁inc	-175
nt	-176
▁ne	-177
ology	-178
ain	-179
gh	-180
hy	-181
▁se	-182
ay	-183
per	-184
vel	-185
▁ch	-186
ell	-187
▁le	-188
▁comp	-189
ory	-190
pp	-191
▁D	-192
▁19	-193
erm	-194
ld	-195
tical	-196
ac	-197
ect	-198
hem	-199
ts	-200
▁can	-201
▁gen	-202
ary	-203
▁ha	-204
ap	-205
▁wor	-206
iz	-207
ics	-208
▁N	-209
ition	-210
con	-211
yst	-212
▁L	-213
▁soci	-214
red	-215
▁cl	-216
ome	-217
ance	-218
ystem	-219
ms	-220
ia	-221
▁such	-222
▁not	-223
▁ar	-224
▁par	-225
act	-226
ution	-227
all	-228
ass	-229
▁2	-230
▁cont	-231
ru	-232
▁have	-233
ill	-234
ous	-235
ally	-236
fic	-237
▁were	-238
▁mat	-239
etw	-240
▁im	-241
▁stud	-242
▁ac	-243
est	-244
▁dis	-245
▁other	-246
ke	-247
cess	-248
vi	-249
▁pl	-250
igh	-251
ds	-252
▁res	-253
ech	-254
▁mod	-255
▁its	-256
▁J	-257
any	-258
▁r	-259
ble	-260
for	-261
der	-262
▁O	-263
ural	-264
lud	-265
vol	-266
enti	-267
▁sci	-268
00	-269
▁U	-270
ore	-271
▁ph	-272
ort	-273
▁their	-274
▁spe	-275
ari	-276
▁ad	-277
ult	-278
ide	-279
ple	-280
▁rel	-281
▁system	-282
▁he	-283
▁qu	-284
▁inter	-285
our	-286
rou	-287
ep	-288
ber	-289
▁ob	-290
so	-291
ess	-292
ks	-293
ning	-294
▁includ	-295
gan	-296
▁has	-297
velop	-298
oun	-299
▁cent	-300
sy	-301
ew	-302
▁Th	-303
▁k	-304
▁whe	-305
ang	-306
▁cons	-307
ates	-308
▁this	-309
ties	-310
▁tra	-311
▁develop	-312
▁ab	-313
▁met	-314
▁more	-315
▁It	-316
▁em	-317
si	-318
fere	-319
▁all	-320
end	-321
ach	-322
▁pol	-323
conom	-324
ati	-325
ag	-326
sych	-327
tics	-328
ied	-329
▁also	-330
ron	-331
▁per	-332
ism	-333
rac	-334
ast	-335
▁dem	-336
▁hist	-337
able	-338
ry	-339
arch	-340
een	-341
ature	-342
▁sh	-343
▁dif	-344
▁used	-345
ular	-346
▁form	-347
now	-348
▁fi	-349
rap	-350
▁hum	-351
etween	-352
form	-353
▁sub	-354
ists	-355
▁but	-356
▁exam	-357
ual	-358
ial	-359
ric	-360
ational	-361
▁between	-362
).	-363
ign	-364
ten	-365
▁study	-366
ould	-367
aly	-368
ars	-369
▁produ	-370
hys	-371
▁lear	-372
ced	-373
ian	-374
und	-375
ject	-376
ff	-377
ard	-378
▁go	-379
irst	-380
▁imp	-381
age	-382
ative	-383
ace	-384
▁sp	-385
▁speci	-386
▁into	-387
▁ele	-388
ved	-389
rop	-390
▁Al	-391
▁mathem	-392
out	-393
ents	-394
▁des	-395
▁bec	-396
ress	-397
▁psych	-398
▁econom	-399
ree	-400
▁Germ	-401
),	-402
▁ag	-403
reas	-404
▁comm	-405
ong	-406
▁This	-407
ame	-408
rans	-409
ight	-410
▁one	-411
▁gener	-412
▁process	-413
ury	-414
ern	-415
rib	-416
ough	-417
erg	-418
ni	-419
▁know	-420
ely	-421
▁me	-422
▁model	-423
ves	-424
hod	-425
▁first	-426
▁social	-427
▁than	-428
▁20	-429
▁rep	-430
volution	-431
hes	-432
▁been	-433
▁app	-434
▁tim	-435
▁co	-436
▁under	-437
aus	-438
pt	-439
▁ev	-440
tern	-441
rough	-442
▁theory	-443
aw	-444
▁work	-445
bl	-446
ological	-447
ound	-448
▁most	-449
ust	-450
▁differe	-451
up	-452
▁method	-453
▁out	-454
▁some	-455
▁they	-456
▁human	-457
▁organ	-458
▁rese	-459
▁ap	-460
▁trans	-461
te	-462
ens	-463
ions	-464
ctions	-465
▁ind	-466
dition	-467
ments	-468
▁mathema	-469
▁learning	-470
ines	-471
ater	-472
osop	-473
▁war	-474
▁K	-475
les	-476
ilosop	-477
▁equ	-478
ire	-479
ruct	-480
▁fiel	-481
tim	-482
▁vari	-483
tit	-484
▁tw	-485
▁{	-486
▁ass	-487
▁pos	-488
▁use	-489
ograp	-490
ange	-491
▁inf	-492
▁many	-493
▁comput	-494
yn	-495
iss	-496
are	-497
▁century	-498
rit	-499
king	-500
▁18	-501
hi	-502
ount	-503
vers	-504
▁phys	-505
▁An	-506
de	-507
ors	-508
▁science	-509
ue	-510
hed	-511
▁lar	-512
▁example	-513
▁Ch	-514
▁li	-515
▁had	-516
uring	-517
▁how	-518
▁time	-519
▁these	-520
▁two	-521
▁over	-522
▁def	-523
▁philosop	-524
ding	-525
▁pre	-526
▁new	-527
resent	-528
ex	-529
ack	-530
▁increas	-531
▁class	-532
ha	-533
dust	-534
ie	-535
▁bi	-536
arly	-537
▁bas	-538
yp	-539
ose	-540
▁may	-541
▁appro	-542
ec	-543
ubl	-544
ob	-545
uro	-546
▁ge	-547
art	-548
▁dec	-549
alled	-550
▁analy	-551
▁V	-552
▁y	-553
ined	-554
cul	-555
uc	-556
▁dat	-557
▁tech	-558
itical	-559
ath	-560
ren	-561
▁pr	-562
▁sol	-563
rm	-564
hen	-565
ited	-566
▁through	-567
als	-568
oth	-569
▁po	-570
iron	-571
ish	-572
ton	-573
▁reg	-574
cc	-575
▁rec	-576
cipl	-577
▁num	-578
▁term	-579
▁law	-580
▁ra	-581
plic	-582
▁am	-583
▁partic	-584
put	-585
ergy	-586
▁chem	-587
ne	-588
▁exp	-589
ets	-590
ving	-591
▁pop	-592
▁research	-593
its	-594
▁called	-595
▁Un	-596
▁ro	-597
▁St	-598
very	-599
▁struct	-600
gin	-601
ser	-602
throp	-603
▁proble	-604
▁sim	-605
ered	-606
▁fun	-607
▁only	-608
ral	-609
▁dist	-610
▁supp	-611
▁democ	-612
led	-613
▁disc	-614
▁histor	-615
lu	-616
ever	-617
▁mach	-618
ran	-619
ility	-620
▁often	-621
▁exper	-622
ower	-623
ating	-624
oll	-625
▁when	-626
▁there	-627
urope	-628
int	-629
▁do	-630
▁For	-631
▁systems	-632
▁so	-633
▁elect	-634
li	-635
ena	-636
ivid	-637
ental	-638
ind	-639
▁different	-640
▁data	-641
▁desc	-642
▁energy	-643
▁acc	-644
▁Europe	-645
dustri	-646
▁found	-647
ps	-648
ark	-649
havi	-650
▁about	-651
▁up	-652
til	-653
racy	-654
▁conc	-655
ram	-656
▁we	-657
▁j	-658
▁his	-659
ffect	-660
iti	-661
echan	-662
▁obser	-663
ak	-664
ures	-665
▁field	-666
▁political	-667
▁pe	-668
ph	-669
ons	-670
ile	-671
▁att	-672
fter	-673
etwor	-674
▁AI	-675
▁As	-676
row	-677
▁sur	-678
acter	-679
▁networ	-680
▁including	-681
▁bod	-682
▁history	-683
▁publ	-684
▁car	-685
isms	-686
▁who	-687
▁development	-688
bra	-689
ific	-690
gor	-691
viron	-692
▁behavi	-693
▁mechan	-694
ized	-695
ically	-696
▁known	-697
▁Am	-698
▁would	-699
▁cell	-700
dustrial	-701
round	-702
▁plan	-703
▁them	-704
▁methods	-705
▁no	-706
tions	-707
▁cult	-708
atural	-709
ulation	-710
ise	-711
sis	-712
ences	-713
ase	-714
ted	-715
▁det	-716
▁expl	-717
▁fact	-718
av	-719
▁prov	-720
▁anthrop	-721
▁sc	-722
rodu	-723
▁object	-724
▁ref	-725
▁gene	-726
ause	-727
▁consid	-728
oo	-729
cept	-730
gebra	-731
▁change	-732
tis	-733
▁well	-734
ety	-735
ologists	-736
formation	-737
ros	-738
▁(1	-739
▁both	-740
▁will	-741
▁early	-742
gen	-743
vern	-744
▁include	-745
arth	-746
ished	-747
oy	-748
".	-749
▁ide	-750
▁set	-751
▁mill	-752
▁machine	-753
▁psychology	-754
ili	-755
▁cap	-756
▁scienti	-757
vironment	-758
ite	-759
eric	-760
▁comple	-761
uch	-762
▁Ar	-763
▁man	-764
ining	-765
▁developed	-766
jor	-767
▁ye	-768
reat	-769
▁ext	-770
▁sign	-771
ings	-772
▁cre	-773
▁occ	-774
▁world	-775
ail	-776
ost	-777
▁fe	-778
iter	-779
ven	-780
ynam	-781
▁New	-782
▁function	-783
▁Re	-784
▁influ	-785
▁large	-786
ography	-787
ople	-788
other	-789
▁represent	-790
iod	-791
▁17	-792
here	-793
▁3	-794
▁German	-795
ft	-796
ants	-797
antum	-798
ories	-799
▁phot	-800
ocus	-801
▁adv	-802
▁col	-803
pect	-804
▁ins	-805
ynt	-806
▁rem	-807
▁each	-808
▁natural	-809
▁underst	-810
▁En	-811
▁general	-812
ful	-813
▁bel	-814
ividual	-815
angu	-816
osed	-817
▁common	-818
▁algebra	-819
▁philosophy	-820
ization	-821
▁import	-822
▁Germany	-823
▁describ	-824
ym	-825
▁Earth	-826
▁individual	-827
▁{\	-828
▁like	-829
▁pers	-830
▁focus	-831
▁major	-832
▁particular	-833
ision	-834
▁modern	-835
▁eng	-836
▁while	-837
▁mathematics	-838
tain	-839
▁within	-840
vity	-841
bon	-842
ues	-843
▁ri	-844
ential	-845
▁langu	-846
▁power	-847
▁govern	-848
▁people	-849
▁typ	-850
▁during	-851
▁period	-852
▁di	-853
imate	-854
▁evolution	-855
▁environment	-856
ale	-857
alcul	-858
▁prog	-859
▁democracy	-860
▁mathematical	-861
apan	-862
ually	-863
▁pred	-864
▁where	-865
▁med	-866
▁Americ	-867
▁physics	-868
}}	-869
▁sm	-870
▁191	-871
▁though	-872
eg	-873
the	-874
ases	-875
ince	-876
ised	-877
▁grou	-878
hers	-879
▁made	-880
▁part	-881
▁count	-882
▁models	-883
▁quantum	-884
▁analysis	-885
▁economic	-886
▁ast	-887
▁char	-888
▁These	-889
▁after	-890
▁val	-891
▁techn	-892
ife	-893
ove	-894
▁arg	-895
▁dep	-896
▁Japan	-897
50	-898
000	-899
ays	-900
sts	-901
▁cur	-902
ption	-903
▁inst	-904
▁dire	-905
▁quan	-906
▁ori	-907
▁any	-908
issance	-909
▁understand	-910
▁then	-911
▁what	-912
ficial	-913
ond	-914
▁es	-915
▁201	-916
ellig	-917
elf	-918
▁aut	-919
▁mole	-920
▁could	-921
cy	-922
▁tex	-923
▁mass	-924
▁prop	-925
▁allow	-926
▁demand	-927
ogn	-928
fore	-929
▁How	-930
di	-931
arc	-932
ledge	-933
▁years	-934
enaissance	-935
▁if	-936
lect	-937
▁result	-938
▁chemical	-939
▁So	-940
▁invol	-941
▁light	-942
▁behavior	-943
plied	-944
▁Some	-945
▁meas	-946
▁using	-947
▁vi	-948
▁experim	-949
▁became	-950
▁information	-951
▁anthropology	-952
dis	-953
one	-954
▁Com	-955
ality	-956
▁being	-957
ive	-958
▁gl	-959
▁giv	-960
action	-961
▁sociology	-962
ood	-963
cond	-964
▁All	-965
▁oper	-966
▁chang	-967
▁const	-968
ize	-969
ages	-970
▁inv	-971
▁effect	-972
▁computer	-973
▁organisms	-974
▁Renaissance	-975
hesis	-976
▁high	-977
▁–	-978
par	-979
ries	-980
▁end	-981
▁off	-982
▁mark	-983
▁origin	-984
▁discipl	-985
▁fin	-986
▁forces	-987
▁number	-988
▁species	-989
ploy	-990
istry	-991
▁state	-992
actions	-993
▁However	-994
nce	-995
ollow	-996
▁body	-997
▁life	-998
▁writ	-999
▁small	-1000
▁calcul	-1001
ese	-1002
atis	-1003
land	-1004
▁mic	-1005
▁mul	-1006
▁phen	-1007
▁same	-1008
▁contin	-1009
abl	-1010
▁mem	-1011
▁Gree	-1012
ols	-1013
ting	-1014
▁non	-1015
▁ser	-1016
▁knowledge	-1017
NA	-1018
sive	-1019
sible	-1020
▁population	-1021
▁problems	-1022
▁bu	-1023
▁based	-1024
alth	-1025
tish	-1026
vely	-1027
▁sch	-1028
▁redu	-1029
▁language	-1030
▁important	-1031
ins	-1032
ital	-1033
▁lab	-1034
gorith	-1035
▁carbon	-1036
pre	-1037
ming	-1038
▁194	-1039
▁cor	-1040
▁exist	-1041
▁applic	-1042
▁complex	-1043
▁processes	-1044
osp	-1045
▁uni	-1046
▁main	-1047
▁objects	-1048
▁relations	-1049
▁Le	-1050
math	-1051
▁dom	-1052
▁lead	-1053
▁public	-1054
▁studies	-1055
urn	-1056
istic	-1057
though	-1058
ability	-1059
▁neural	-1060
▁approach	-1061
omet	-1062
▁Sun	-1063
▁Sovi	-1064
utions	-1065
▁liter	-1066
▁climate	-1067
▁million	-1068
",	-1069
▁ta	-1070
ogni	-1071
▁grow	-1072
ritish	-1073
▁United	-1074
20	-1075
▁Con	-1076
ently	-1077
ities	-1078
ronom	-1079
▁water	-1080
▁predic	-1081
elligence	-1082
bers	-1083
▁gra	-1084
▁lim	-1085
▁observ	-1086
ene	-1087
▁op	-1088
,000	-1089
oman	-1090
ox	-1091
ued	-1092
▁War	-1093
ather	-1094
epend	-1095
▁theore	-1096
▁because	-1097
▁tradition	-1098
ae	-1099
▁suc	-1100
▁resp	-1101
odynam	-1102
▁level	-1103
▁bl	-1104
▁line	-1105
▁long	-1106
ognitive	-1107
{\	-1108
▁De	-1109
peci	-1110
osynt	-1111
▁larg	-1112
▁pric	-1113
▁again	-1114
versity	-1115
▁around	-1116
▁historical	-1117
▁At	-1118
ived	-1119
ross	-1120
▁Pol	-1121
▁requ	-1122
▁sever	-1123
▁therm	-1124
▁British	-1125
▁concern	-1126
▁mechanics	-1127
▁structure	-1128
old	-1129
pts	-1130
▁began	-1131
▁follow	-1132
▁several	-1133
▁networks	-1134
▁id	-1135
ains	-1136
▁algorith	-1137
▁economics	-1138
att	-1139
ook	-1140
▁caus	-1141
▁move	-1142
▁occur	-1143
▁space	-1144
▁related	-1145
▁cy	-1146
atic	-1147
▁proper	-1148
ty	-1149
oid	-1150
▁ed	-1151
ians	-1152
▁Wor	-1153
▁eth	-1154
▁gre	-1155
▁led	-1156
▁deep	-1157
▁force	-1158
▁government	-1159
▁By	-1160
▁prac	-1161
ertain	-1162
▁Newton	-1163
▁phenom	-1164
."	-1165
cl	-1166
por	-1167
ffic	-1168
niqu	-1169
ctive	-1170
ering	-1171
tificial	-1172
▁problem	-1173
ness	-1174
▁orb	-1175
▁Soci	-1176
▁prin	-1177
lection	-1178
▁production	-1179
wn	-1180
rol	-1181
olar	-1182
ward	-1183
▁comb	-1184
▁conf	-1185
▁glob	-1186
estern	-1187
▁areas	-1188
▁System	-1189
▁second	-1190
▁industrial	-1191
–1	-1192
cing	-1193
▁mon	-1194
▁pat	-1195
▁direct	-1196
▁nature	-1197
▁techniqu	-1198
oh	-1199
ov	-1200
▁loc	-1201
▁states	-1202
ased	-1203
tial	-1204
▁DNA	-1205
▁later	-1206
▁associ	-1207
▁supply	-1208
▁physical	-1209
ides	-1210
▁Eng	-1211
▁determ	-1212
▁American	-1213
▁specific	-1214
▁mean	-1215
▁much	-1216
▁fields	-1217
▁another	-1218
▁introdu	-1219
▁scientific	-1220
.,	-1221
ice	-1222
war	-1223
▁pot	-1224
▁tem	-1225
cient	-1226
▁ques	-1227
▁genes	-1228
▁Soviet	-1229
▁success	-1230
ug	-1231
ght	-1232
ild	-1233
uss	-1234
▁16	-1235
lear	-1236
▁der	-1237
▁laws	-1238
▁prim	-1239
▁view	-1240
▁integ	-1241
▁cultural	-1242
▁He	-1243
▁fl	-1244
ared	-1245
ances	-1246
▁three	-1247
▁engine	-1248
▁measure	-1249
▁various	-1250
▁photosynt	-1251
▁since	-1252
▁those	-1253
▁recogn	-1254
▁quantit	-1255
▁support	-1256
▁electron	-1257
▁classical	-1258
hip	-1259
yle	-1260
▁Cl	-1261
▁fund	-1262
▁given	-1263
▁express	-1264
▁Revolution	-1265
get	-1266
iel	-1267
▁make	-1268
▁against	-1269
▁signific	-1270
▁intelligence	-1271
ording	-1272
▁simil	-1273
▁intere	-1274
▁subject	-1275
▁astronom	-1276
sequ	-1277
▁Pro	-1278
▁est	-1279
ained	-1280
ffici	-1281
▁prom	-1282
urther	-1283
▁identi	-1284
▁applied	-1285
▁feature	-1286
▁thought	-1287
▁considered	-1288
ges	-1289
▁bro	-1290
▁multi	-1291
▁matter	-1292
▁geography	-1293
▁ox	-1294
▁ent	-1295
▁top	-1296
▁acti	-1297
▁countries	-1298
ware	-1299
▁Uni	-1300
▁way	-1301
▁Aust	-1302
▁good	-1303
▁defin	-1304
▁global	-1305
cip	-1306
▁lay	-1307
▁Solar	-1308
▁among	-1309
▁commun	-1310
br	-1311
▁cri	-1312
itary	-1313
ograph	-1314
▁micro	-1315
isation	-1316
▁design	-1317
▁establ	-1318
▁concept	-1319
▁theories	-1320
▁4	-1321
oms	-1322
ingu	-1323
erial	-1324
verse	-1325
▁emerg	-1326
▁perform	-1327
▁thermodynam	-1328
ency	-1329
ites	-1330
▁act	-1331
▁nuc	-1332
ement	-1333
▁cells	-1334
▁genetic	-1335
ner	-1336
xim	-1337
▁sym	-1338
▁They	-1339
▁less	-1340
▁World	-1341
▁polic	-1342
▁changes	-1343
▁discipline	-1344
▁'	-1345
ables	-1346
▁back	-1347
▁statis	-1348
▁character	-1349
ave	-1350
val	-1351
ype	-1352
ames	-1353
ract	-1354
▁There	-1355
osphere	-1356
▁output	-1357
▁increase	-1358
idd	-1359
▁hy	-1360
cular	-1361
▁conce	-1362
▁employ	-1363
▁intern	-1364
▁position	-1365
read	-1366
idence	-1367
▁price	-1368
▁Western	-1369
▁material	-1370
bri	-1371
com	-1372
ier	-1373
ina	-1374
ired	-1375
rain	-1376
▁fam	-1377
▁mil	-1378
▁terms	-1379
▁person	-1380
▁network	-1381
▁significant	-1382
ma	-1383
play	-1384
▁show	-1385
ources	-1386
▁belie	-1387
▁subst	-1388
perature	-1389
▁European	-1390
▁cognitive	-1391
▁understanding	-1392
▁input	-1393
▁meaning	-1394
▁researc	-1395
▁addition	-1396
▁interest	-1397
ord	-1398
▁On	-1399
▁Ind	-1400
▁need	-1401
▁real	-1402
▁reas	-1403
▁role	-1404
▁point	-1405
▁start	-1406
▁works	-1407
▁condition	-1408
▁structures	-1409
ung	-1410
▁202	-1411
aches	-1412
ended	-1413
rench	-1414
▁even	-1415
▁Greek	-1416
▁program	-1417
jec	-1418
ris	-1419
ults	-1420
▁atm	-1421
▁opp	-1422
▁Brit	-1423
▁Ital	-1424
▁arch	-1425
acteria	-1426
▁\	-1427
▁el	-1428
bert	-1429
ense	-1430
▁tas	-1431
▁Other	-1432
▁every	-1433
▁present	-1434
▁techniques	-1435
hel	-1436
ribut	-1437
times	-1438
▁chemistry	-1439
cid	-1440
▁BC	-1441
▁Ge	-1442
ously	-1443
▁anim	-1444
▁until	-1445
▁possible	-1446
me	-1447
fer	-1448
ink	-1449
pir	-1450
rate	-1451
ensive	-1452
▁ancient	-1453
▁differen	-1454
▁definition	-1455
▁temperature	-1456
60	-1457
ip	-1458
ool	-1459
▁Ph	-1460
▁sug	-1461
▁land	-1462
▁uses	-1463
ilibri	-1464
▁types	-1465
▁Britain	-1466
oss	-1467
cial	-1468
till	-1469
▁did	-1470
▁iss	-1471
▁log	-1472
ional	-1473
▁bran	-1474
▁buil	-1475
▁pres	-1476
▁States	-1477
▁fundam	-1478
▁humans	-1479
▁plants	-1480
▁planets	-1481
ification	-1482
air	-1483
▁Pl	-1484
▁av	-1485
▁Joh	-1486
▁pur	-1487
▁educ	-1488
▁impro	-1489
ilibrium	-1490
▁further	-1491
ix	-1492
to	-1493
▁radi	-1494
▁very	-1495
▁French	-1496
▁relati	-1497
▁democra	-1498
▁results	-1499
▁calculus	-1500
▁evidence	-1501
▁literature	-1502
ged	-1503
ict	-1504
ring	-1505
▁due	-1506
ately	-1507
▁prob	-1508
▁broad	-1509
▁group	-1510
▁motion	-1511
▁control	-1512
▁similar	-1513
▁sciences	-1514
▁increasing	-1515
▁Y	-1516
ept	-1517
▁Em	-1518
▁ke	-1519
▁One	-1520
▁fre	-1521
▁min	-1522
inary	-1523
▁late	-1524
▁sequ	-1525
▁forms	-1526
▁initi	-1527
▁relig	-1528
▁others	-1529
▁rather	-1530
▁Italian	-1531
▁pattern	-1532
▁society	-1533
▁training	-1534
▁University	-1535
sc	-1536
▁9	-1537
▁own	-1538
▁Hist	-1539
▁Italy	-1540
▁attem	-1541
▁super	-1542
▁before	-1543
▁market	-1544
▁without	-1545
▁independ	-1546
▁increased	-1547
▁phenomena	-1548
▁Industrial	-1549
▁artificial	-1550
rong	-1551
▁Psych	-1552
▁Roman	-1553
▁reason	-1554
▁effects	-1555
▁special	-1556
▁algebraic	-1557
▁influence	-1558
med	-1559
▁sl	-1560
hile	-1561
cules	-1562
▁appe	-1563
▁groups	-1564
▁making	-1565
▁certain	-1566
▁concepts	-1567
▁environmental	-1568
face	-1569
ouse	-1570
ples	-1571
ented	-1572
style	-1573
▁text	-1574
▁word	-1575
▁prote	-1576
▁military	-1577
▁approaches	-1578
▁fundamental	-1579
ax	-1580
bi	-1581
ann	-1582
tal	-1583
ible	-1584
▁Sci	-1585
▁nor	-1586
ither	-1587
▁Many	-1588
▁domin	-1589
▁ideas	-1590
▁affect	-1591
▁aspect	-1592
▁respon	-1593
ulations	-1594
▁product	-1595
▁psychologists	-1596
cti	-1597
ium	-1598
rent	-1599
▁hig	-1600
▁does	-1601
▁past	-1602
▁rele	-1603
pecially	-1604
▁interpre	-1605
ead	-1606
gre	-1607
rance	-1608
▁rest	-1609
▁disco	-1610
▁inher	-1611
tically	-1612
▁amount	-1613
▁numbers	-1614
▁researchers	-1615
▁CO	-1616
frac	-1617
olic	-1618
▁civ	-1619
ified	-1620
▁prof	-1621
▁place	-1622
▁experi	-1623
▁warming	-1624
▁produced	-1625
▁variables	-1626
▁equilibrium	-1627
..	-1628
▁Q	-1629
omes	-1630
▁abs	-1631
▁see	-1632
▁stand	-1633
▁central	-1634
▁whether	-1635
▁Japanese	-1636
▁described	-1637
▁biological	-1638
tig	-1639
▁ru	-1640
ious	-1641
▁hel	-1642
▁mut	-1643
hical	-1644
▁four	-1645
ination	-1646
▁bodies	-1647
▁instit	-1648
▁produce	-1649
lor	-1650
ygen	-1651
▁mom	-1652
▁vot	-1653
rated	-1654
▁sing	-1655
▁upon	-1656
▁Union	-1657
▁contr	-1658
▁learn	-1659
▁separ	-1660
display	-1661
▁includes	-1662
▁equations	-1663
▁properties	-1664
displaystyle	-1665
▁established	-1666
phas	-1667
▁hyd	-1668
▁John	-1669
▁idea	-1670
▁stat	-1671
▁along	-1672
ference	-1673
osition	-1674
▁growth	-1675
▁moment	-1676
▁explain	-1677
▁identif	-1678
▁conditions	-1679
▁applications	-1680
une	-1681
ably	-1682
adem	-1683
inese	-1684
▁France	-1685
▁consum	-1686
▁surface	-1687
▁reaction	-1688
▁associated	-1689
-1	-1690
80	-1691
90	-1692
arl	-1693
▁Ex	-1694
chie	-1695
omen	-1696
▁Acc	-1697
▁achie	-1698
▁estim	-1699
vention	-1700
▁across	-1701
▁become	-1702
▁Chinese	-1703
70	-1704
by	-1705
ll	-1706
▁Is	-1707
▁Arm	-1708
▁add	-1709
▁rul	-1710
▁auth	-1711
▁clos	-1712
▁single	-1713
▁defined	-1714
▁molecules	-1715
▁introduced	-1716
{2	-1717
▁15	-1718
ters	-1719
▁Sch	-1720
izing	-1721
▁adap	-1722
▁symb	-1723
ciples	-1724
ration	-1725
▁parti	-1726
▁emphas	-1727
▁higher	-1728
▁consider	-1729
▁elements	-1730
▁equation	-1731
▁features	-1732
▁reactions	-1733
of	-1734
ily	-1735
▁er	-1736
line	-1737
▁dri	-1738
▁test	-1739
▁great	-1740
▁still	-1741
▁events	-1742
▁capital	-1743
▁especially	-1744
▁historians	-1745
▁theoretical	-1746
NN	-1747
▁sa	-1748
▁ve	-1749
ctor	-1750
ource	-1751
▁emiss	-1752
▁refer	-1753
▁impact	-1754
▁strong	-1755
▁Although	-1756
▁national	-1757
▁potential	-1758
▁published	-1759
▁atmosphere	-1760
▁technology	-1761
6,	-1762
▁5	-1763
otic	-1764
ypot	-1765
▁193	-1766
▁Mat	-1767
▁cir	-1768
▁now	-1769
▁ret	-1770
▁ris	-1771
▁ter	-1772
▁book	-1773
▁China	-1774
▁culture	-1775
▁factors	-1776
▁sometimes	-1777
▁statistical	-1778
▁photosynthesis	-1779
3,	-1780
9,	-1781
ky	-1782
not	-1783
▁US	-1784
aces	-1785
cent	-1786
lish	-1787
tice	-1788
▁aim	-1789
owers	-1790
▁Arch	-1791
▁area	-1792
▁heat	-1793
gether	-1794
vestig	-1795
▁While	-1796
▁deriv	-1797
▁mental	-1798
▁policy	-1799
▁traits	-1800
▁together	-1801
▁selection	-1802
▁algorithms	-1803
cies	-1804
fact	-1805
iddle	-1806
▁enti	-1807
▁assum	-1808
▁short	-1809
▁times	-1810
▁English	-1811
▁constit	-1812
▁scientists	-1813
▁individuals	-1814
4,	-1815
5,	-1816
bf	-1817
ib	-1818
ub	-1819
eng	-1820
ick	-1821
▁Se	-1822
port	-1823
▁200	-1824
▁air	-1825
▁div	-1826
anced	-1827
▁hand	-1828
▁play	-1829
▁rule	-1830
mathbf	-1831
▁means	-1832
▁either	-1833
▁geomet	-1834
▁health	-1835
▁created	-1836
▁however	-1837
▁proposed	-1838
cop	-1839
own	-1840
▁Go	-1841
mber	-1842
▁ful	-1843
▁leg	-1844
atory	-1845
wards	-1846
▁With	-1847
▁help	-1848
▁neut	-1849
istics	-1850
▁basic	-1851
▁contex	-1852
▁itself	-1853
▁provid	-1854
▁decision	-1855
▁momentum	-1856
▁operations	-1857
▁interactions	-1858
day	-1859
sci	-1860
ator	-1861
ying	-1862
▁arm	-1863
▁too	-1864
hysics	-1865
overed	-1866
▁green	-1867
▁academ	-1868
▁effici	-1869
▁oxygen	-1870
▁provide	-1871
▁usually	-1872
▁quantity	-1873
▁According	-1874
▁typically	-1875
ops	-1876
▁Ad	-1877
▁ec	-1878
▁gas	-1879
▁mag	-1880
▁mor	-1881
iving	-1882
▁coll	-1883
▁take	-1884
▁brain	-1885
▁child	-1886
▁chrom	-1887
▁orbit	-1888
▁Intern	-1889
▁planet	-1890
▁popular	-1891
▁studied	-1892
▁investig	-1893
▁generally	-1894
▁philosophical	-1895
ze	-1896
aced	-1897
sian	-1898
▁art	-1899
▁few	-1900
▁neg	-1901
▁tru	-1902
arian	-1903
▁Fran	-1904
▁anti	-1905
isions	-1906
tation	-1907
▁begin	-1908
▁infin	-1909
▁parts	-1910
▁value	-1911
▁Allies	-1912
▁Austri	-1913
▁formed	-1914
▁movement	-1915
▁astronomy	-1916
▁concerned	-1917
ches	-1918
▁ste	-1919
arily	-1920
atici	-1921
rogen	-1922
▁bene	-1923
▁self	-1924
▁type	-1925
lation	-1926
vation	-1927
▁curve	-1928
▁empir	-1929
▁event	-1930
▁hypot	-1931
▁speech	-1932
▁although	-1933
co	-1934
▁We	-1935
ffec	-1936
ices	-1937
▁Dem	-1938
▁Par	-1939
▁vis	-1940
vised	-1941
▁iron	-1942
▁tools	-1943
ographic	-1944
▁aspects	-1945
▁patterns	-1946
▁particularly	-1947
▁thermodynamics	-1948
ys	-1949
cle	-1950
ute	-1951
way	-1952
ened	-1953
view	-1954
▁vol	-1955
aries	-1956
▁King	-1957
▁pass	-1958
▁press	-1959
ultural	-1960
▁diffic	-1961
▁bacteria	-1962
▁education	-1963
ane	-1964
dom	-1965
urb	-1966
▁Ap	-1967
▁Li	-1968
ires	-1969
▁far	-1970
based	-1971
eties	-1972
lying	-1973
▁Cent	-1974
▁Mach	-1975
▁When	-1976
▁alle	-1977
▁case	-1978
▁cost	-1979
▁ethn	-1980
▁mind	-1981
▁must	-1982
▁turn	-1983
dustry	-1984
uation	-1985
▁civil	-1986
▁argued	-1987
ribution	-1988
▁biology	-1989
▁reprodu	-1990
▁contrast	-1991
▁question	-1992
aci	-1993
els	-1994
erb	-1995
que	-1996
▁10	-1997
▁te	-1998
eter	-1999
hips	-2000
soci	-2001
▁cot	-2002
▁her	-2003
enced	-2004
hetic	-2005
imens	-2006
▁post	-2007
▁rise	-2008
mathrm	-2009
▁women	-2010
▁compar	-2011
▁distin	-2012
▁engineering	-2013
orn	-2014
▁Pr	-2015
▁ep	-2016
itiz	-2017
kary	-2018
▁key	-2019
▁tak	-2020
etter	-2021
change	-2022
▁limit	-2023
▁order	-2024
discipl	-2025
▁perspe	-2026
▁included	-2027
▁mathematici	-2028
▁recognition	-2029
8.	-2030
▁Ro	-2031
▁la	-2032
▁Nor	-2033
▁low	-2034
▁sex	-2035
▁wid	-2036
▁Comm	-2037
▁fore	-2038
▁avail	-2039
▁goods	-2040
▁tasks	-2041
jective	-2042
ologies	-2043
▁industry	-2044
▁observed	-2045
▁organism	-2046
▁emissions	-2047
_{	-2048
man	-2049
sib	-2050
vit	-2051
▁To	-2052
ched	-2053
fiel	-2054
ured	-2055
▁dra	-2056
▁fix	-2057
▁pri	-2058
▁coal	-2059
▁coun	-2060
ression	-2061
▁leading	-2062
▁approxim	-2063
▁algorithm	-2064
▁psychological	-2065
1,	-2066
▁z	-2067
ope	-2068
▁14	-2069
▁If	-2070
uman	-2071
▁Mar	-2072
▁able	-2073
▁prot	-2074
▁synt	-2075
ulated	-2076
▁chlor	-2077
▁citiz	-2078
▁corre	-2079
▁divid	-2080
▁occup	-2081
▁schol	-2082
▁total	-2083
▁linear	-2084
▁ability	-2085
▁attempt	-2086
▁consist	-2087
▁difficult	-2088
▁principles	-2089
▁successful	-2090
▁institutions	-2091
▁7	-2092
equ	-2093
win	-2094
▁Ke	-2095
▁gu	-2096
gest	-2097
onst	-2098
rams	-2099
ried	-2100
ways	-2101
▁(19	-2102
itive	-2103
ublic	-2104
▁bill	-2105
▁evol	-2106
▁rules	-2107
▁stars	-2108
▁formal	-2109
izations	-2110
▁animals	-2111
▁activity	-2112
▁describe	-2113
▁following	-2114
▁interaction	-2115
su	-2116
▁AU	-2117
▁Be	-2118
▁Ot	-2119
ourn	-2120
side	-2121
▁Lat	-2122
arent	-2123
ember	-2124
▁shif	-2125
▁might	-2126
▁plant	-2127
▁solve	-2128
eration	-2129
ributed	-2130
▁During	-2131
▁Econom	-2132
▁better	-2133
▁regard	-2134
▁region	-2135
▁Another	-2136
▁molecular	-2137
▁societies	-2138
▁processing	-2139
▁experimental	-2140
2,	-2141
▁6	-2142
▁Sp	-2143
▁cho	-2144
▁deb	-2145
▁sem	-2146
▁sit	-2147
ected	-2148
▁Allied	-2149
▁depend	-2150
▁layers	-2151
▁should	-2152
▁questions	-2153
▁discovered	-2154
ero	-2155
ths	-2156
ghts	-2157
▁Gen	-2158
▁cate	-2159
▁fram	-2160
▁rate	-2161
▁thus	-2162
▁After	-2163
▁effec	-2164
ception	-2165
▁allows	-2166
▁cotton	-2167
▁levels	-2168
▁values	-2169
▁account	-2170
▁demonst	-2171
▁variety	-2172
▁writing	-2173
▁involves	-2174
▁particip	-2175
▁reasoning	-2176
▁transform	-2177
▁revolution	-2178
be	-2179
yl	-2180
ats	-2181
bed	-2182
ork	-2183
▁II	-2184
▁Ne	-2185
duct	-2186
ends	-2187
ffor	-2188
▁Rus	-2189
▁tro	-2190
attle	-2191
empor	-2192
ounds	-2193
▁path	-2194
▁extre	-2195
▁local	-2196
▁media	-2197
▁sense	-2198
▁words	-2199
▁larger	-2200
▁economy	-2201
▁inherit	-2202
▁neutral	-2203
▁academic	-2204
▁resources	-2205
▁application	-2206
▁populations	-2207
30	-2208
7,	-2209
▁°	-2210
aps	-2211
}{\	-2212
ooks	-2213
▁Aug	-2214
▁sec	-2215
inist	-2216
oxide	-2217
uries	-2218
▁down	-2219
▁hard	-2220
▁prec	-2221
econom	-2222
▁atoms	-2223
▁dynam	-2224
▁logic	-2225
▁nucle	-2226
ologist	-2227
▁issues	-2228
▁quanti	-2229
▁rights	-2230
▁simple	-2231
▁territ	-2232
▁current	-2233
▁profess	-2234
▁constant	-2235
▁multiple	-2236
▁studying	-2237
▁computational	-2238
az	-2239
▁Z	-2240
kes	-2241
ole	-2242
ude	-2243
▁Af	-2244
▁Im	-2245
▁et	-2246
like	-2247
pire	-2248
ront	-2249
▁bre	-2250
▁lat	-2251
▁mar	-2252
▁nar	-2253
iness	-2254
right	-2255
scale	-2256
▁Army	-2257
▁Deep	-2258
▁Rese	-2259
▁abst	-2260
▁goal	-2261
▁size	-2262
▁numer	-2263
▁range	-2264
▁treat	-2265
▁August	-2266
▁accept	-2267
▁action	-2268
▁attack	-2269
hemistry	-2270
▁chromos	-2271
▁context	-2272
▁emerged	-2273
▁offensive	-2274
▁particles	-2275
wh	-2276
mar	-2277
otes	-2278
rang	-2279
▁del	-2280
atics	-2281
netic	-2282
rateg	-2283
▁acid	-2284
▁neur	-2285
▁repl	-2286
▁sent	-2287
▁James	-2288
▁basis	-2289
▁expect	-2290
▁gravit	-2291
▁source	-2292
▁Science	-2293
▁instead	-2294
▁nuclear	-2295
▁citizens	-2296
▁scholars	-2297
▁behaviour	-2298
▁functions	-2299
▁transport	-2300
.5	-2301
xt	-2302
▁Bl	-2303
▁Man	-2304
ators	-2305
ciple	-2306
▁Serb	-2307
▁Will	-2308
▁atom	-2309
▁capt	-2310
▁food	-2311
roscop	-2312
▁bound	-2313
▁built	-2314
▁least	-2315
▁scale	-2316
ruction	-2317
▁limited	-2318
▁require	-2319
▁written	-2320
▁advanced	-2321
▁hydrogen	-2322
▁involved	-2323
▁experiments	-2324
▁represented	-2325
8,	-2326
ade	-2327
ote	-2328
oti	-2329
tle	-2330
▁IS	-2331
▁came	-2332
▁fail	-2333
▁true	-2334
aining	-2335
ission	-2336
▁compe	-2337
▁speed	-2338
▁steam	-2339
▁labour	-2340
▁necess	-2341
▁topics	-2342
▁troops	-2343
▁focused	-2344
▁regions	-2345
▁distingu	-2346
▁centuries	-2347
▁determine	-2348
▁democratic	-2349
▁influential	-2350
▁observations	-2351
^{2	-2352
osm	-2353
▁wa	-2354
kely	-2355
▁May	-2356
▁eas	-2357
▁hal	-2358
▁men	-2359
itect	-2360
thern	-2361
ulate	-2362
▁Most	-2363
▁Afric	-2364
▁colon	-2365
▁confl	-2366
assical	-2367
▁author	-2368
▁outside	-2369
▁suggest	-2370
▁workers	-2371
▁distance	-2372
▁instance	-2373
▁internal	-2374
▁standard	-2375
▁empirical	-2376
cu	-2377
sp	-2378
amp	-2379
ino	-2380
rag	-2381
ste	-2382
▁Sim	-2383
▁har	-2384
▁mac	-2385
▁old	-2386
▁rap	-2387
▁East	-2388
▁More	-2389
▁free	-2390
atives	-2391
ftware	-2392
versal	-2393
▁chall	-2394
▁lingu	-2395
▁theor	-2396
▁trade	-2397
osystem	-2398
ription	-2399
▁Middle	-2400
▁expand	-2401
▁having	-2402
▁spread	-2403
eptember	-2404
▁Kingdom	-2405
▁Machine	-2406
▁billion	-2407
▁continu	-2408
▁country	-2409
▁element	-2410
▁reflect	-2411
▁trained	-2412
▁branches	-2413
▁principle	-2414
▁experiment	-2415
▁evolutionary	-2416
5.	-2417
avy	-2418
ler	-2419
ock	-2420
▁Ju	-2421
▁Qu	-2422
know	-2423
▁Ott	-2424
▁bus	-2425
▁sup	-2426
elves	-2427
organ	-2428
ufact	-2429
▁adop	-2430
▁vers	-2431
tition	-2432
▁absor	-2433
▁accel	-2434
▁colle	-2435
▁frequ	-2436
▁imple	-2437
▁right	-2438
ilities	-2439
▁dioxide	-2440
▁primary	-2441
▁towards	-2442
▁directly	-2443
▁examples	-2444
▁provided	-2445
▁provides	-2446
▁sequence	-2447
▁Political	-2448
▁observation	-2449
▁relationships	-2450
ck	-2451
go	-2452
aim	-2453
ird	-2454
▁(2	-2455
greg	-2456
ints	-2457
rote	-2458
vent	-2459
yond	-2460
▁Mic	-2461
▁Mod	-2462
ament	-2463
feren	-2464
house	-2465
▁Russ	-2466
▁clou	-2467
▁last	-2468
ungary	-2469
▁Since	-2470
▁image	-2471
▁units	-2472
▁cannot	-2473
▁school	-2474
▁series	-2475
▁Russian	-2476
▁allowed	-2477
▁chlorop	-2478
▁closely	-2479
▁discuss	-2480
▁improve	-2481
▁started	-2482
▁strateg	-2483
▁geometry	-2484
▁transfer	-2485
▁September	-2486
▁architect	-2487
▁implement	-2488
▁resulting	-2489
▁solutions	-2490
▁derivative	-2491
▁International	-2492
ank	-2493
nov	-2494
och	-2495
ots	-2496
rab	-2497
uel	-2498
most	-2499
ored	-2500
▁mid	-2501
▁tre	-2502
tices	-2503
usion	-2504
▁dise	-2505
▁fall	-2506
ements	-2507
ptions	-2508
uments	-2509
▁agric	-2510
▁death	-2511
▁previ	-2512
▁rates	-2513
▁texts	-2514
▁thems	-2515
▁whose	-2516
▁wrote	-2517
▁Empire	-2518
▁Mathem	-2519
▁belief	-2520
▁center	-2521
▁entire	-2522
▁members	-2523
▁business	-2524
▁composed	-2525
▁programs	-2526
▁beginning	-2527
▁continued	-2528
▁themselves	-2529
▁quantitative	-2530
ont	-2531
uth	-2532
acks	-2533
ands	-2534
atom	-2535
less	-2536
medi	-2537
osph	-2538
▁Dar	-2539
▁Med	-2540
▁Way	-2541
▁ago	-2542
▁den	-2543
▁ord	-2544
aking	-2545
itics	-2546
▁acqu	-2547
▁cour	-2548
▁find	-2549
▁happ	-2550
▁held	-2551
▁Latin	-2552
▁exten	-2553
▁liber	-2554
▁rapid	-2555
▁Battle	-2556
▁likely	-2557
▁living	-2558
▁orbits	-2559
▁useful	-2560
emporary	-2561
▁Austria	-2562
▁finding	-2563
▁sources	-2564
▁available	-2565
▁generation	-2566
▁disciplines	-2567
▁perspective	-2568
▁increasingly	-2569
78	-2570
9.	-2571
▁0	-2572
off	-2573
rie	-2574
ales	-2575
bran	-2576
eral	-2577
oids	-2578
pite	-2579
rete	-2580
sing	-2581
term	-2582
▁(20	-2583
▁sum	-2584
▁July	-2585
▁Mars	-2586
▁decl	-2587
▁dest	-2588
▁laun	-2589
▁link	-2590
▁loss	-2591
▁near	-2592
itesim	-2593
▁India	-2594
▁effor	-2595
▁journ	-2596
▁lower	-2597
▁reduce	-2598
▁search	-2599
▁specif	-2600
▁conduct	-2601
▁divided	-2602
▁children	-2603
▁electrons	-2604
▁existence	-2605
▁experience	-2606
▁independent	-2607
▁traditional	-2608
▁relationship	-2609
▁classification	-2610
ery	-2611
ley	-2612
rim	-2613
vin	-2614
xis	-2615
hing	-2616
ives	-2617
▁syn	-2618
▁vel	-2619
asion	-2620
omial	-2621
▁Asia	-2622
▁Marx	-2623
▁belt	-2624
▁heli	-2625
▁just	-2626
▁autom	-2627
oration	-2628
▁Histor	-2629
▁access	-2630
▁caused	-2631
▁compon	-2632
▁transm	-2633
▁address	-2634
▁founded	-2635
▁largest	-2636
▁Research	-2637
▁dominant	-2638
▁original	-2639
▁pressure	-2640
▁referred	-2641
▁religious	-2642
▁influenced	-2643
▁structural	-2644
▁throughout	-2645
disciplinary	-2646
▁inheritance	-2647
BN	-2648
au	-2649
na	-2650
iam	-2651
oph	-2652
ses	-2653
amed	-2654
resp	-2655
tian	-2656
▁deg	-2657
▁ill	-2658
ights	-2659
plies	-2660
ukary	-2661
▁isol	-2662
▁said	-2663
▁ways	-2664
inking	-2665
ocracy	-2666
▁cycle	-2667
▁equal	-2668
▁whole	-2669
ovember	-2670
▁Associ	-2671
▁branch	-2672
▁causes	-2673
▁things	-2674
entially	-2675
▁consequ	-2676
▁commonly	-2677
▁discover	-2678
▁followed	-2679
▁relation	-2680
▁students	-2681
▁therefore	-2682
▁photosynthetic	-2683
erc	-2684
omb	-2685
ison	-2686
outh	-2687
▁Des	-2688
▁Rep	-2689
aster	-2690
ocity	-2691
▁Geor	-2692
▁ISBN	-2693
▁best	-2694
▁conn	-2695
▁eval	-2696
▁serv	-2697
▁shap	-2698
▁side	-2699
rought	-2700
▁above	-2701
▁cause	-2702
▁goals	-2703
▁layer	-2704
▁beyond	-2705
▁widely	-2706
▁Society	-2707
▁achieve	-2708
▁actions	-2709
▁decreas	-2710
▁working	-2711
▁majority	-2712
▁manufact	-2713
▁response	-2714
▁separate	-2715
▁software	-2716
▁greenhouse	-2717
▁computation	-2718
▁infinitesim	-2719
▁distribution	-2720
▁thermodynamic	-2721
2.	-2722
4.	-2723
ken	-2724
ume	-2725
ades	-2726
eles	-2727
ling	-2728
onom	-2729
pass	-2730
ream	-2731
▁dou	-2732
▁ear	-2733
▁ess	-2734
▁tar	-2735
▁ver	-2736
itted	-2737
ument	-2738
▁flow	-2739
▁subs	-2740
▁wide	-2741
aching	-2742
iction	-2743
verage	-2744
▁benef	-2745
▁claim	-2746
▁maint	-2747
▁makes	-2748
▁neuro	-2749
▁optim	-2750
▁solid	-2751
▁depart	-2752
▁Anthrop	-2753
▁Central	-2754
▁History	-2755
▁William	-2756
▁corresp	-2757
▁counter	-2758
▁membran	-2759
▁abstract	-2760
▁particle	-2761
▁politics	-2762
▁rational	-2763
▁estimated	-2764
▁practices	-2765
▁probability	-2766
▁mathematicians	-2767
3.	-2768
ta	-2769
xi	-2770
acy	-2771
ean	-2772
las	-2773
urs	-2774
▁gr	-2775
▁pa	-2776
back	-2777
lier	-2778
▁198	-2779
▁Wil	-2780
▁cat	-2781
▁dig	-2782
▁fut	-2783
▁red	-2784
andom	-2785
stein	-2786
▁Arab	-2787
▁agre	-2788
▁defe	-2789
▁lost	-2790
▁open	-2791
▁step	-2792
▁stra	-2793
ortion	-2794
plicit	-2795
▁cross	-2796
▁labor	-2797
▁polyn	-2798
▁today	-2799
▁Comput	-2800
▁Darwin	-2801
▁Robert	-2802
▁active	-2803
▁archae	-2804
▁family	-2805
▁mainly	-2806
▁possib	-2807
▁powers	-2808
▁Ottoman	-2809
▁focuses	-2810
▁initial	-2811
▁medical	-2812
ographers	-2813
▁November	-2814
▁machines	-2815
▁velocity	-2816
▁practical	-2817
▁efficiency	-2818
▁relativity	-2819
▁predictions	-2820
▁developments	-2821
▁international	-2822
▁representation	-2823
▁8	-2824
orm	-2825
rad	-2826
ril	-2827
ulf	-2828
▁Eg	-2829
▁Fl	-2830
▁jo	-2831
ores	-2832
raph	-2833
▁196	-2834
▁199	-2835
▁ann	-2836
▁cod	-2837
▁mus	-2838
▁oce	-2839
▁phy	-2840
▁tri	-2841
ought	-2842
ultim	-2843
ection	-2844
ellect	-2845
▁Arist	-2846
▁cases	-2847
▁resol	-2848
▁thous	-2849
▁Greece	-2850
▁income	-2851
▁points	-2852
▁vector	-2853
ognition	-2854
▁challen	-2855
▁greater	-2856
▁predict	-2857
▁whereas	-2858
▁exchange	-2859
▁phenomen	-2860
▁positive	-2861
▁proteins	-2862
▁computing	-2863
▁radiation	-2864
▁expression	-2865
▁polynomial	-2866
bit	-2867
▁30	-2868
▁tr	-2869
aged	-2870
alog	-2871
brid	-2872
iest	-2873
ival	-2874
vant	-2875
▁BCE	-2876
▁Bec	-2877
▁Col	-2878
▁Gal	-2879
▁alg	-2880
▁enc	-2881
▁gal	-2882
▁sun	-2883
▁vir	-2884
▁why	-2885
antic	-2886
illed	-2887
known	-2888
urban	-2889
versi	-2890
▁poll	-2891
▁took	-2892
▁tren	-2893
▁wave	-2894
itable	-2895
▁conne	-2896
▁Poland	-2897
▁cities	-2898
▁detail	-2899
▁future	-2900
▁latter	-2901
▁occurs	-2902
▁concent	-2903
▁smaller	-2904
▁subsequ	-2905
ellectual	-2906
▁communic	-2907
▁concerns	-2908
▁creation	-2909
▁occurred	-2910
▁according	-2911
▁community	-2912
▁compounds	-2913
▁discovery	-2914
▁languages	-2915
▁primarily	-2916
▁universal	-2917
▁relatively	-2918
▁traditions	-2919
1.	-2920
}\	-2921
▁u	-2922
avi	-2923
ctr	-2924
urk	-2925
plit	-2926
such	-2927
▁Its	-2928
▁dev	-2929
▁ens	-2930
▁lea	-2931
▁sat	-2932
▁unc	-2933
jecti	-2934
light	-2935
ondon	-2936
ready	-2937
▁June	-2938
▁come	-2939
▁cosm	-2940
▁zero	-2941
▁aster	-2942
▁extin	-2943
▁lines	-2944
▁manip	-2945
▁proof	-2946
▁ultim	-2947
▁urban	-2948
istance	-2949
raction	-2950
roughly	-2951
▁critic	-2952
▁eukary	-2953
▁inform	-2954
▁inputs	-2955
▁report	-2956
▁England	-2957
▁categor	-2958
▁remains	-2959
▁theorem	-2960
▁believed	-2961
▁identify	-2962
▁surround	-2963
▁symbolic	-2964
imensional	-2965
▁decisions	-2966
▁collection	-2967
▁eventually	-2968
▁performance	-2969
▁technologies	-2970
we	-2971
...	-2972
={\	-2973
eth	-2974
inc	-2975
lam	-2976
▁12	-2977
▁50	-2978
▁Ma	-2979
osis	-2980
▁flu	-2981
▁him	-2982
aring	-2983
istem	-2984
ossil	-2985
romag	-2986
▁star	-2987
▁task	-2988
elling	-2989
century	-2990
ctively	-2991
liament	-2992
▁London	-2993
▁advant	-2994
▁factor	-2995
▁memory	-2996
▁obtain	-2997
▁physic	-2998
▁refers	-2999
fication	-3000
▁advance	-3001
▁contain	-3002
▁content	-3003
▁largely	-3004
▁building	-3005
▁distinct	-3006
▁employed	-3007
▁religion	-3008
▁required	-3009
▁increases	-3010
▁materials	-3011
▁quantities	-3012
▁substances	-3013
▁intellectual	-3014
40	-3015
6.	-3016
▁X	-3017
iry	-3018
sol	-3019
urg	-3020
▁Sh	-3021
etry	-3022
hold	-3023
used	-3024
▁Eth	-3025
▁age	-3026
▁ded	-3027
▁hor	-3028
▁ren	-3029
ittle	-3030
oring	-3031
pping	-3032
quiry	-3033
thing	-3034
▁1960	-3035
▁From	-3036
▁Thus	-3037
▁aims	-3038
▁feed	-3039
▁left	-3040
▁next	-3041
▁purp	-3042
▁qual	-3043
▁tend	-3044
▁year	-3045
▁April	-3046
▁Human	-3047
▁gases	-3048
▁narra	-3049
▁Social	-3050
▁create	-3051
▁extern	-3052
▁highly	-3053
▁evolved	-3054
▁reality	-3055
▁subfiel	-3056
▁Archived	-3057
▁Philosop	-3058
▁interact	-3059
▁construct	-3060
▁direction	-3061
▁functional	-3062
▁Association	-3063
aul	-3064
ior	-3065
wor	-3066
▁Bi	-3067
▁Fe	-3068
▁Or	-3069
ises	-3070
ogle	-3071
ools	-3072
opol	-3073
sess	-3074
▁100	-3075
▁195	-3076
▁197	-3077
▁doc	-3078
▁ice	-3079
▁job	-3080
▁tax	-3081
ellar	-3082
esian	-3083
orpor	-3084
▁Ages	-3085
▁arri	-3086
▁draw	-3087
▁half	-3088
▁norm	-3089
▁pure	-3090
▁risk	-3091
jected	-3092
vities	-3093
▁March	-3094
▁cloud	-3095
▁texti	-3096
▁Google	-3097
▁Russia	-3098
▁assess	-3099
▁conver	-3100
▁expans	-3101
▁framew	-3102
▁parent	-3103
▁remain	-3104
▁wealth	-3105
roscopic	-3106
▁Aristot	-3107
▁already	-3108
▁earlier	-3109
▁markets	-3110
▁protein	-3111
▁respect	-3112
▁roughly	-3113
▁allowing	-3114
▁conflict	-3115
▁integral	-3116
▁launched	-3117
▁products	-3118
▁cognition	-3119
▁describes	-3120
▁mechanisms	-3121
▁differences	-3122
▁characteristics	-3123
")	-3124
.}	-3125
ye	-3126
ibn	-3127
osl	-3128
rix	-3129
▁CE	-3130
abil	-3131
cule	-3132
hyll	-3133
time	-3134
▁Har	-3135
▁Mil	-3136
▁cop	-3137
▁fir	-3138
▁six	-3139
elled	-3140
ident	-3141
ising	-3142
lands	-3143
lated	-3144
otype	-3145
▁Axis	-3146
▁rece	-3147
▁spin	-3148
▁unit	-3149
▁weak	-3150
ending	-3151
▁close	-3152
▁exact	-3153
▁innov	-3154
▁shift	-3155
▁third	-3156
hysical	-3157
mediate	-3158
▁agents	-3159
▁ethics	-3160
▁extrem	-3161
▁random	-3162
▁sexual	-3163
▁Germans	-3164
▁average	-3165
▁correct	-3166
▁derived	-3167
▁neurons	-3168
▁extended	-3169
▁modeling	-3170
▁solution	-3171
▁formation	-3172
▁substance	-3173
▁differenti	-3174
▁measurement	-3175
▁contemporary	-3176
-0	-3177
LP	-3178
-19	-3179
NNs	-3180
ded	-3181
mon	-3182
ret	-3183
rug	-3184
–19	-3185
▁21	-3186
▁Ku	-3187
ards	-3188
cest	-3189
onds	-3190
▁190	-3191
▁Bel	-3192
▁Fre	-3193
▁Int	-3194
▁Pri	-3195
▁cru	-3196
▁fav	-3197
▁mix	-3198
▁saw	-3199
▁via	-3200
oming	-3201
▁1940	-3202
▁care	-3203
▁full	-3204
▁Flore	-3205
▁graph	-3206
▁share	-3207
▁topic	-3208
ellular	-3209
tention	-3210
▁ancest	-3211
▁enough	-3212
▁moving	-3213
ependent	-3214
▁Because	-3215
▁Romania	-3216
▁brought	-3217
▁classif	-3218
▁inquiry	-3219
▁learned	-3220
▁contains	-3221
▁examines	-3222
▁property	-3223
▁emergence	-3224
dimensional	-3225
▁reproduction	-3226
▁gravitational	-3227
rs	-3228
alk	-3229
ape	-3230
zed	-3231
aded	-3232
aign	-3233
ione	-3234
itiv	-3235
izes	-3236
onal	-3237
orts	-3238
oted	-3239
over	-3240
▁(18	-3241
▁Jos	-3242
▁Loc	-3243
▁cle	-3244
▁fig	-3245
▁jus	-3246
▁nav	-3247
▁sam	-3248
inent	-3249
ithme	-3250
tists	-3251
▁Prin	-3252
▁West	-3253
▁city	-3254
▁give	-3255
▁once	-3256
▁pair	-3257
▁rail	-3258
▁seen	-3259
▁stim	-3260
▁tool	-3261
inical	-3262
ishing	-3263
▁argue	-3264
▁artic	-3265
▁clear	-3266
▁finan	-3267
▁indic	-3268
▁overl	-3269
▁print	-3270
▁rigor	-3271
▁simpl	-3272
▁Modern	-3273
▁aggreg	-3274
▁appear	-3275
▁consci	-3276
▁degree	-3277
▁destro	-3278
▁fossil	-3279
▁satell	-3280
▁toward	-3281
▁travel	-3282
atically	-3283
ployment	-3284
▁involve	-3285
▁testing	-3286
abilities	-3287
▁National	-3288
▁critical	-3289
▁designed	-3290
▁division	-3291
▁reducing	-3292
▁relative	-3293
▁remained	-3294
▁universe	-3295
▁positions	-3296
▁activities	-3297
▁difference	-3298
▁electromag	-3299
▁hypothesis	-3300
▁importance	-3301
▁organization	-3302
ik	-3303
io	-3304
▁+	-3305
enn	-3306
mat	-3307
pro	-3308
rew	-3309
see	-3310
ulg	-3311
ull	-3312
▁Ab	-3313
▁Gu	-3314
▁Mo	-3315
▁Sc	-3316
▁_{	-3317
iven	-3318
omin	-3319
oney	-3320
▁192	-3321
▁Cal	-3322
▁Car	-3323
▁Her	-3324
▁His	-3325
▁bor	-3326
▁fit	-3327
▁map	-3328
▁mis	-3329
▁she	-3330
force	-3331
▁1980	-3332
▁Char	-3333
▁Nept	-3334
▁bias	-3335
▁camp	-3336
▁diff	-3337
▁done	-3338
▁North	-3339
▁accur	-3340
▁algae	-3341
▁never	-3342
▁novel	-3343
▁respe	-3344
▁spati	-3345
▁truth	-3346
arliest	-3347
hemical	-3348
▁almost	-3349
▁altern	-3350
▁animal	-3351
▁exists	-3352
▁needed	-3353
fficient	-3354
pervised	-3355
▁alleles	-3356
▁nations	-3357
▁organic	-3358
▁schools	-3359
▁campaign	-3360
▁electric	-3361
▁external	-3362
▁genetics	-3363
▁molecule	-3364
▁policies	-3365
▁expressed	-3366
▁situation	-3367
▁theorists	-3368
▁developing	-3369
▁democracies	-3370
▁programming	-3371
▁anthropologists	-3372
10	-3373
cer	-3374
lex	-3375
omp	-3376
▁("	-3377
▁Pe	-3378
▁lo	-3379
ceed	-3380
echn	-3381
heim	-3382
▁Gre	-3383
▁Jan	-3384
▁Met	-3385
▁fil	-3386
▁hol	-3387
▁und	-3388
acity	-3389
astic	-3390
etary	-3391
heric	-3392
ibniz	-3393
otion	-3394
▁Paul	-3395
▁away	-3396
▁lack	-3397
▁oxid	-3398
▁sens	-3399
▁weap	-3400
erated	-3401
▁cover	-3402
▁fixed	-3403
▁quick	-3404
▁taken	-3405
▁takes	-3406
▁valid	-3407
compass	-3408
▁Africa	-3409
▁conser	-3410
▁former	-3411
▁genome	-3412
▁images	-3413
▁little	-3414
▁record	-3415
ithmetic	-3416
▁Neptune	-3417
▁possess	-3418
▁project	-3419
▁affected	-3420
▁appeared	-3421
▁capacity	-3422
▁combined	-3423
▁creating	-3424
▁cultures	-3425
▁discrete	-3426
▁earliest	-3427
▁expanded	-3428
▁literary	-3429
▁measured	-3430
▁progress	-3431
plications	-3432
▁Democracy	-3433
▁computers	-3434
▁necessary	-3435
▁proportion	-3436
▁transition	-3437
▁professional	-3438
,"	-3439
bs	-3440
sw	-3441
▁,	-3442
bre	-3443
cto	-3444
lin	-3445
oan	-3446
▁13	-3447
▁Ed	-3448
▁Er	-3449
▁Sw	-3450
omas	-3451
ones	-3452
▁Act	-3453
▁Rec	-3454
▁axi	-3455
▁bar	-3456
▁etc	-3457
▁pig	-3458
ching	-3459
ieval	-3460
▁Octo	-3461
▁five	-3462
▁name	-3463
▁priv	-3464
▁read	-3465
▁soil	-3466
alysis	-3467
ensity	-3468
undred	-3469
▁Islam	-3470
▁black	-3471
▁macro	-3472
▁medic	-3473
▁metab	-3474
▁named	-3475
atively	-3476
instein	-3477
▁explan	-3478
▁linked	-3479
ungarian	-3480
▁Leibniz	-3481
▁October	-3482
▁becomes	-3483
▁reduced	-3484
▁attempts	-3485
▁improved	-3486
▁membrane	-3487
▁practice	-3488
▁requires	-3489
▁subjects	-3490
▁variable	-3491
▁attention	-3492
▁contribut	-3493
▁ecosystem	-3494
▁encompass	-3495
▁expansion	-3496
▁movements	-3497
▁supported	-3498
▁synthesis	-3499
▁thousands	-3500
▁generative	-3501
▁phenomenon	-3502
▁systematic	-3503
▁chromosomes	-3504
▁competition	-3505
▁consumption	-3506
▁description	-3507
▁philosophers	-3508
▁technological	-3509
bo	-3510
zo	-3511
col	-3512
eph	-3513
iag	-3514
rep	-3515
▁Sm	-3516
ford	-3517
oses	-3518
raft	-3519
▁978	-3520
▁Can	-3521
▁hab	-3522
▁hom	-3523
ensus	-3524
eting	-3525
irect	-3526
isted	-3527
ratic	-3528
▁1970	-3529
▁army	-3530
▁rein	-3531
▁surv	-3532
inated	-3533
making	-3534
spring	-3535
upiter	-3536
urrent	-3537
▁Chris	-3538
▁Trans	-3539
▁assem	-3540
▁freed	-3541
▁front	-3542
▁fully	-3543
▁gradu	-3544
▁heavi	-3545
▁metap	-3546
▁scope	-3547
▁surve	-3548
▁white	-3549
▁School	-3550
▁argues	-3551
▁biases	-3552
▁gender	-3553
▁nearly	-3554
▁unique	-3555
ospheric	-3556
▁America	-3557
▁Physics	-3558
▁decades	-3559
▁engines	-3560
▁prevent	-3561
▁solving	-3562
▁substan	-3563
▁achieved	-3564
▁advances	-3565
▁hypothes	-3566
▁mutation	-3567
▁thinking	-3568
▁connected	-3569
▁effective	-3570
▁extremely	-3571
▁mutations	-3572
▁operation	-3573
▁planetary	-3574
▁suggested	-3575
▁variation	-3576
▁Artificial	-3577
▁additional	-3578
▁geographic	-3579
▁underlying	-3580
▁composition	-3581
▁definitions	-3582
▁translation	-3583
▁sociologists	-3584
▁approximation	-3585
▁interpretation	-3586
?"	-3587
ah	-3588
▁}	-3589
ake	-3590
can	-3591
tra	-3592
▁Br	-3593
▁ir	-3594
ests	-3595
▁And	-3596
▁Fin	-3597
▁adm	-3598
ached	-3599
ively	-3600
level	-3601
which	-3602
▁1950	-3603
▁Keyn	-3604
▁Mend	-3605
▁Over	-3606
▁core	-3607
▁dram	-3608
▁suff	-3609
▁unem	-3610
▁virt	-3611
tively	-3612
▁Given	-3613
▁avoid	-3614
▁books	-3615
▁break	-3616
▁criti	-3617
▁issue	-3618
▁maxim	-3619
▁names	-3620
▁parad	-3621
▁phase	-3622
▁split	-3623
▁think	-3624
▁uncon	-3625
▁Thomas	-3626
▁allele	-3627
▁always	-3628
▁contro	-3629
▁mostly	-3630
▁recent	-3631
▁volume	-3632
▁Jupiter	-3633
▁depends	-3634
▁growing	-3635
▁massive	-3636
▁monarch	-3637
▁notably	-3638
▁periods	-3639
▁thereby	-3640
plication	-3641
ributions	-3642
▁Economic	-3643
▁clinical	-3644
▁negative	-3645
▁starting	-3646
▁inherited	-3647
▁interpret	-3648
▁offspring	-3649
▁technique	-3650
▁uncertain	-3651
▁complexity	-3652
▁connection	-3653
▁governments	-3654
▁demonstrated	-3655
▁specifically	-3656
TP	-3657
▁=	-3658
che	-3659
cil	-3660
hat	-3661
ini	-3662
▁11	-3663
ague	-3664
fare	-3665
iper	-3666
oint	-3667
wise	-3668
▁Dif	-3669
▁Hit	-3670
▁che	-3671
▁exc	-3672
▁get	-3673
▁mer	-3674
▁mob	-3675
▁str	-3676
▁von	-3677
aging	-3678
pread	-3679
urity	-3680
▁1990	-3681
▁Belg	-3682
▁Both	-3683
▁Bulg	-3684
▁Such	-3685
▁answ	-3686
▁circ	-3687
▁cris	-3688
▁dark	-3689
▁gave	-3690
▁oral	-3691
▁rely	-3692
▁sets	-3693
▁sulf	-3694
ulture	-3695
▁First	-3696
▁minim	-3697
▁outer	-3698
▁wides	-3699
itative	-3700
urkheim	-3701
▁Indian	-3702
▁Joseph	-3703
▁Polish	-3704
▁commer	-3705
▁longer	-3706
▁prices	-3707
▁return	-3708
▁showed	-3709
▁termed	-3710
▁Nations	-3711
▁autonom	-3712
▁gravity	-3713
▁impacts	-3714
▁journal	-3715
▁microbi	-3716
▁promote	-3717
▁spatial	-3718
▁changing	-3719
▁compared	-3720
▁demanded	-3721
▁emphasis	-3722
▁explicit	-3723
▁hardware	-3724
▁magnetic	-3725
▁measures	-3726
▁replaced	-3727
▁advantage	-3728
▁conscious	-3729
▁financial	-3730
▁invention	-3731
▁pollution	-3732
▁producing	-3733
▁technical	-3734
▁foundation	-3735
▁integrated	-3736
▁mechanical	-3737
▁previously	-3738
▁satellites	-3739
▁statements	-3740
▁widespread	-3741
▁contributed	-3742
▁responsible	-3743
▁construction	-3744
▁introduction	-3745
15	-3746
AI	-3747
▁⁠	-3748
The	-3749
bod	-3750
lit	-3751
ned	-3752
ony	-3753
roc	-3754
tiv	-3755
▁1.	-3756
▁Di	-3757
▁NA	-3758
▁sk	-3759
ania	-3760
fect	-3761
oura	-3762
tism	-3763
▁err	-3764
▁jud	-3765
▁put	-3766
▁say	-3767
▁sea	-3768
anies	-3769
chang	-3770
ether	-3771
rical	-3772
▁2010	-3773
▁diag	-3774
▁else	-3775
▁slow	-3776
▁unif	-3777
▁vast	-3778
▁viol	-3779
▁vote	-3780
luding	-3781
▁Paris	-3782
▁Sever	-3783
▁evalu	-3784
▁gives	-3785
▁minor	-3786
▁solar	-3787
▁style	-3788
Hungary	-3789
▁Kuiper	-3790
▁comets	-3791
▁domain	-3792
▁ground	-3793
▁transc	-3794
▁voting	-3795
ferences	-3796
▁General	-3797
▁classes	-3798
▁digital	-3799
▁diverse	-3800
▁epistem	-3801
▁notable	-3802
▁quickly	-3803
▁Durkheim	-3804
▁Einstein	-3805
▁colonial	-3806
▁determin	-3807
▁expected	-3808
▁incorpor	-3809
▁invasion	-3810
supervised	-3811
▁companies	-3812
▁objective	-3813
▁reduction	-3814
▁arithmetic	-3815
▁economists	-3816
▁resistance	-3817
▁linguistics	-3818
▁constitution	-3819
▁differential	-3820
▁sociological	-3821
▁independently	-3822
▁significantly	-3823
▁representative	-3824
ham	-3825
hic	-3826
ids	-3827
psi	-3828
udd	-3829
alle	-3830
cycl	-3831
inal	-3832
ogen	-3833
prop	-3834
rapy	-3835
rest	-3836
▁189	-3837
▁Ast	-3838
▁Max	-3839
▁Sam	-3840
▁Ven	-3841
▁cut	-3842
▁oil	-3843
▁saf	-3844
▁yet	-3845
idden	-3846
iring	-3847
tives	-3848
▁Pers	-3849
▁Vari	-3850
▁base	-3851
▁spir	-3852
▁util	-3853
encies	-3854
herent	-3855
struct	-3856
▁Micro	-3857
▁Speci	-3858
▁Weber	-3859
▁below	-3860
▁build	-3861
▁costs	-3862
▁galax	-3863
▁house	-3864
▁inner	-3865
▁legal	-3866
▁meant	-3867
▁moral	-3868
▁morph	-3869
▁peace	-3870
▁pione	-3871
itarian	-3872
unction	-3873
▁Hitler	-3874
▁Powers	-3875
▁Second	-3876
▁Serbia	-3877
▁atomic	-3878
▁debate	-3879
▁helped	-3880
▁marked	-3881
▁medium	-3882
▁signal	-3883
▁stimul	-3884
omething	-3885
▁Despite	-3886
▁Several	-3887
▁causing	-3888
▁disease	-3889
▁hundred	-3890
▁unknown	-3891
▁warfare	-3892
▁Florence	-3893
▁accepted	-3894
▁becoming	-3895
▁entities	-3896
▁existing	-3897
▁presence	-3898
▁Aristotle	-3899
▁numerical	-3900
▁territory	-3901
▁classified	-3902
▁continuous	-3903
▁perception	-3904
▁speciation	-3905
▁philosopher	-3906
DP	-3907
gl	-3908
ash	-3909
ray	-3910
use	-3911
zym	-3912
}}}	-3913
▁Su	-3914
abor	-3915
uses	-3916
▁Ham	-3917
▁NLP	-3918
▁aid	-3919
▁dam	-3920
▁era	-3921
▁fem	-3922
▁net	-3923
▁pus	-3924
▁squ	-3925
▁ten	-3926
actic	-3927
anish	-3928
arbon	-3929
ctors	-3930
gular	-3931
iable	-3932
osing	-3933
where	-3934
▁1800	-3935
▁cred	-3936
▁deli	-3937
▁faci	-3938
▁fair	-3939
▁frag	-3940
▁home	-3941
▁magn	-3942
▁rare	-3943
▁remo	-3944
▁tree	-3945
▁yiel	-3946
cember	-3947
omatic	-3948
▁Marsh	-3949
▁agent	-3950
▁amino	-3951
▁final	-3952
▁habit	-3953
▁legis	-3954
▁metal	-3955
▁soldi	-3956
alculus	-3957
▁Mendel	-3958
▁anatom	-3959
▁detect	-3960
▁proved	-3961
▁target	-3962
economic	-3963
elligent	-3964
▁Ancient	-3965
▁Austral	-3966
▁Charles	-3967
▁Wayback	-3968
▁adopted	-3969
▁analyze	-3970
▁authors	-3971
▁changed	-3972
▁leaders	-3973
▁visible	-3974
economics	-3975
▁industri	-3976
▁invented	-3977
▁ordinary	-3978
▁spinning	-3979
▁sunlight	-3980
▁consensus	-3981
▁elections	-3982
▁factories	-3983
▁framework	-3984
▁performed	-3985
▁presented	-3986
▁Psychology	-3987
▁adaptation	-3988
▁extinction	-3989
▁statistics	-3990
▁understood	-3991
▁agriculture	-3992
▁assumptions	-3993
▁foundations	-3994
▁potentially	-3995
▁architecture	-3996
▁unemployment	-3997
▁manufacturing	-3998
CO	-3999
ns	-4000
▁-	-4001
▁x	-4002
bar	-4003
ems	-4004
ime	-4005
lig	-4006
omm	-4007
oul	-4008
son	-4009
umb	-4010
uto	-4011
ypt	-4012
▁Ri	-4013
▁gi	-4014
▁sw	-4015
anob	-4016
aria	-4017
berg	-4018
enth	-4019
gory	-4020
igen	-4021
inds	-4022
oyal	-4023
pped	-4024
utes	-4025
utri	-4026
▁185	-4027
▁Cop	-4028
▁Ret	-4029
▁Ste	-4030
▁run	-4031
hibit	-4032
reaty	-4033
▁Lear	-4034
▁cond	-4035
▁fuel	-4036
▁ions	-4037
▁kind	-4038
▁opin	-4039
▁tens	-4040
stream	-4041
ultane	-4042
▁Egypt	-4043
▁Great	-4044
▁Inter	-4045
▁adapt	-4046
▁advoc	-4047
▁comes	-4048
▁fight	-4049
▁heavy	-4050
▁imper	-4051
▁music	-4052
▁paper	-4053
▁plays	-4054
agement	-4055
uations	-4056
▁Treaty	-4057
▁dimens	-4058
▁famous	-4059
▁invest	-4060
▁microb	-4061
▁mining	-4062
▁months	-4063
▁passed	-4064
▁shaped	-4065
▁sought	-4066
▁stated	-4067
▁status	-4068
▁stress	-4069
▁taking	-4070
▁visual	-4071
▁Islamic	-4072
▁destroy	-4073
▁ethical	-4074
▁freedom	-4075
▁origins	-4076
▁restric	-4077
▁symbols	-4078
organisms	-4079
versities	-4080
▁December	-4081
▁dynamics	-4082
▁findings	-4083
▁generate	-4084
▁medieval	-4085
▁occupied	-4086
▁soldiers	-4087
▁Cognitive	-4088
▁efficient	-4089
▁establish	-4090
▁prominent	-4091
▁sequences	-4092
▁something	-4093
▁statement	-4094
▁controlled	-4095
▁interested	-4096
▁subjective	-4097
▁chlorophyll	-4098
▁communities	-4099
▁experiences	-4100
▁organizations	-4101
CC	-4102
PA	-4103
yg	-4104
ata	-4105
cis	-4106
des	-4107
itz	-4108
lim	-4109
ott	-4110
▁Ru	-4111
▁cr	-4112
anks	-4113
burg	-4114
come	-4115
oral	-4116
uary	-4117
vere	-4118
▁Bab	-4119
▁But	-4120
▁Cam	-4121
▁Law	-4122
▁cas	-4123
▁cou	-4124
▁day	-4125
▁mig	-4126
▁our	-4127
▁rob	-4128
craft	-4129
ortun	-4130
place	-4131
uracy	-4132
▁Like	-4133
▁Plan	-4134
▁cool	-4135
▁deal	-4136
▁pain	-4137
▁perm	-4138
▁sett	-4139
▁vary	-4140
▁vide	-4141
enetic	-4142
lected	-4143
rieved	-4144
▁Black	-4145
▁Therm	-4146
▁added	-4147
▁apply	-4148
▁datab	-4149
▁embed	-4150
▁inequ	-4151
▁ocean	-4152
▁offic	-4153
▁radio	-4154
▁roles	-4155
▁seeks	-4156
▁stren	-4157
▁waves	-4158
ocratic	-4159
resents	-4160
▁George	-4161
▁analog	-4162
▁belong	-4163
▁effort	-4164
▁forced	-4165
▁killed	-4166
▁manner	-4167
▁stable	-4168
▁surren	-4169
elestial	-4170
▁amounts	-4171
▁beliefs	-4172
▁environ	-4173
▁invaded	-4174
▁signals	-4175
abilistic	-4176
▁Learning	-4177
▁accuracy	-4178
▁accurate	-4179
▁administ	-4180
▁cellular	-4181
▁medicine	-4182
▁neurosci	-4183
▁opportun	-4184
▁rejected	-4185
ographical	-4186
▁Retrieved	-4187
▁Sociology	-4188
▁arguments	-4189
▁detection	-4190
▁diversity	-4191
▁involving	-4192
▁simultane	-4193
▁treatment	-4194
▁behavioral	-4195
▁determined	-4196
▁eukaryotes	-4197
▁frequently	-4198
▁atmospheric	-4199
▁geographers	-4200
▁environments	-4201
▁approximately	-4202
▁infinitesimal	-4203
7.	-4204
SA	-4205
sh	-4206
50,	-4207
ius	-4208
ked	-4209
mer	-4210
pha	-4211
ula	-4212
}}\	-4213
▁(3	-4214
▁No	-4215
▁UK	-4216
fred	-4217
irth	-4218
osen	-4219
urch	-4220
warf	-4221
▁ATP	-4222
▁Ant	-4223
▁Dav	-4224
▁Hen	-4225
▁Tra	-4226
▁bur	-4227
▁imm	-4228
▁rev	-4229
allel	-4230
brary	-4231
human	-4232
orial	-4233
osite	-4234
pired	-4235
▁Each	-4236
▁Merc	-4237
▁Moon	-4238
▁Pier	-4239
▁Prot	-4240
▁Rich	-4241
▁days	-4242
▁elim	-4243
▁furn	-4244
▁hold	-4245
▁vict	-4246
acific	-4247
ameter	-4248
lement	-4249
scious	-4250
▁Early	-4251
▁Organ	-4252
▁Simil	-4253
▁South	-4254
▁Their	-4255
▁absol	-4256
▁aware	-4257
▁bonds	-4258
▁clust	-4259
▁concl	-4260
▁coord	-4261
▁dwarf	-4262
▁facts	-4263
▁firms	-4264
▁justi	-4265
▁moved	-4266
▁needs	-4267
▁perce	-4268
▁shape	-4269
▁table	-4270
▁trait	-4271
agation	-4272
arities	-4273
ulating	-4274
▁Arabic	-4275
▁Wilhel	-4276
▁arrang	-4277
▁bacter	-4278
▁define	-4279
▁ethnic	-4280
▁extent	-4281
▁limits	-4282
▁phases	-4283
▁phosph	-4284
▁preser	-4285
▁shared	-4286
▁signed	-4287
▁sugges	-4288
▁vision	-4289
▁Francis	-4290
▁Further	-4291
▁Scienti	-4292
▁Soviets	-4293
▁efforts	-4294
▁objecti	-4295
▁outputs	-4296
▁positiv	-4297
▁purpose	-4298
▁regular	-4299
▁textile	-4300
▁weapons	-4301
including	-4302
▁Computer	-4303
▁Republic	-4304
▁fixation	-4305
▁numerous	-4306
▁straight	-4307
▁Christian	-4308
▁celestial	-4309
▁component	-4310
▁generated	-4311
▁strategic	-4312
▁components	-4313
▁elementary	-4314
▁identified	-4315
▁industries	-4316
▁originally	-4317
▁regression	-4318
▁subsequent	-4319
▁ultimately	-4320
▁Mathematics	-4321
▁astronomers	-4322
▁combination	-4323
▁comparative	-4324
▁agricultural	-4325
▁consequences	-4326
▁respectively	-4327
▁universities	-4328
▁Psychological	-4329
▁contributions	-4330
▁developmental	-4331
▁representations	-4332
▁.	-4333
▁i	-4334
bor	-4335
ert	-4336
fin	-4337
hyd	-4338
lar	-4339
▁3.	-4340
▁40	-4341
▁Bo	-4342
▁Mc	-4343
▁Op	-4344
▁du	-4345
cids	-4346
fied	-4347
itig	-4348
just	-4349
odes	-4350
ours	-4351
rown	-4352
rypt	-4353
with	-4354
▁178	-4355
▁Ins	-4356
▁Naz	-4357
▁Rel	-4358
▁bal	-4359
▁cal	-4360
▁ion	-4361
▁pie	-4362
▁uns	-4363
ander	-4364
ening	-4365
quity	-4366
rates	-4367
▁2020	-4368
▁Cons	-4369
▁Stud	-4370
▁call	-4371
▁dead	-4372
▁gram	-4373
▁head	-4374
▁repe	-4375
▁soon	-4376
▁sust	-4377
ctives	-4378
cyclop	-4379
engths	-4380
ilbert	-4381
istice	-4382
▁Later	-4383
▁Prize	-4384
▁acids	-4385
▁conqu	-4386
▁enzym	-4387
▁gains	-4388
▁noted	-4389
iration	-4390
partial	-4391
stellar	-4392
▁Alfred	-4393
▁Archae	-4394
▁Within	-4395
▁acting	-4396
▁curves	-4397
▁gained	-4398
▁hidden	-4399
▁margin	-4400
▁oldest	-4401
▁played	-4402
▁poetry	-4403
▁proton	-4404
▁streng	-4405
plicated	-4406
▁Develop	-4407
▁Hungary	-4408
▁Natural	-4409
▁Quantum	-4410
▁Wilhelm	-4411
▁charged	-4412
▁conclud	-4413
▁distant	-4414
▁dynamic	-4415
▁elected	-4416
▁extreme	-4417
▁factory	-4418
▁foreign	-4419
▁paradig	-4420
▁percent	-4421
▁protect	-4422
forcement	-4423
odynamics	-4424
▁Bulgaria	-4425
▁Calculus	-4426
▁circular	-4427
▁diseases	-4428
▁happened	-4429
▁isolated	-4430
▁location	-4431
▁parallel	-4432
▁personal	-4433
▁regarded	-4434
▁released	-4435
▁relevant	-4436
▁rigorous	-4437
▁Classical	-4438
▁Evolution	-4439
▁criticism	-4440
▁convention	-4441
▁represents	-4442
▁discoveries	-4443
▁territories	-4444
▁astronomical	-4445
▁Psychologists	-4446
▁anthropological	-4447
.)	-4448
IS	-4449
▁&	-4450
big	-4451
bru	-4452
den	-4453
hol	-4454
isp	-4455
met	-4456
ped	-4457
▁Co	-4458
▁fa	-4459
▁my	-4460
amet	-4461
cers	-4462
edia	-4463
hist	-4464
ient	-4465
inet	-4466
oung	-4467
▁183	-4468
▁Cor	-4469
▁Dis	-4470
▁Yug	-4471
▁let	-4472
▁rad	-4473
▁win	-4474
inery	-4475
ropri	-4476
stand	-4477
usive	-4478
▁(201	-4479
▁Exam	-4480
▁Mich	-4481
▁Plat	-4482
▁bomb	-4483
▁fast	-4484
▁grew	-4485
▁list	-4486
▁maps	-4487
▁poor	-4488
acking	-4489
titute	-4490
▁Comte	-4491
▁Pluto	-4492
▁Under	-4493
▁chain	-4494
▁ideal	-4495
▁money	-4496
▁naval	-4497
▁prior	-4498
▁recon	-4499
▁renew	-4500
▁Albert	-4501
▁Before	-4502
▁Common	-4503
▁Theory	-4504
▁Yugosl	-4505
▁absorb	-4506
▁course	-4507
▁double	-4508
▁failed	-4509
▁inside	-4510
▁masses	-4511
▁multic	-4512
inations	-4513
▁Algebra	-4514
▁Climate	-4515
▁capture	-4516
▁density	-4517
▁emotion	-4518
▁equival	-4519
▁explore	-4520
▁geology	-4521
▁heavily	-4522
▁opposed	-4523
▁precise	-4524
ictionary	-4525
▁analyses	-4526
▁captured	-4527
▁recently	-4528
▁security	-4529
▁supplied	-4530
ochemistry	-4531
▁Chemistry	-4532
▁aggregate	-4533
▁examining	-4534
▁reference	-4535
▁regarding	-4536
anobacteria	-4537
▁beneficial	-4538
▁occupation	-4539
▁originated	-4540
▁situations	-4541
▁supervised	-4542
▁Environment	-4543
▁alternative	-4544
▁departments	-4545
▁distinction	-4546
▁specialized	-4547
▁intermediate	-4548
▁communication	-4549
▁distinguished	-4550
▁transformation	-4551
98	-4552
erd	-4553
erv	-4554
ias	-4555
let	-4556
nel	-4557
ply	-4558
▁27	-4559
▁El	-4560
▁Hu	-4561
▁ce	-4562
apse	-4563
book	-4564
izon	-4565
left	-4566
onic	-4567
rial	-4568
rich	-4569
rist	-4570
ster	-4571
ylon	-4572
▁Mon	-4573
▁aud	-4574
▁buy	-4575
▁hot	-4576
▁sen	-4577
ength	-4578
estic	-4579
fered	-4580
grees	-4581
ilton	-4582
lasts	-4583
pires	-4584
rehen	-4585
▁1830	-4586
▁2000	-4587
▁Alex	-4588
▁Balk	-4589
▁Grou	-4590
▁Inst	-4591
▁Leon	-4592
▁bond	-4593
▁coop	-4594
▁road	-4595
▁stri	-4596
▁town	-4597
active	-4598
astern	-4599
atical	-4600
bruary	-4601
itting	-4602
netism	-4603
ronomy	-4604
▁David	-4605
▁artis	-4606
▁diver	-4607
▁doctr	-4608
▁gradi	-4609
▁moons	-4610
▁physi	-4611
▁reach	-4612
▁stage	-4613
▁train	-4614
▁waste	-4615
▁wavel	-4616
ctivity	-4617
rations	-4618
related	-4619
▁Follow	-4620
▁Galile	-4621
▁assign	-4622
▁casual	-4623
▁middle	-4624
▁nation	-4625
▁proced	-4626
▁reform	-4627
▁solved	-4628
▁spaces	-4629
▁threat	-4630
▁trends	-4631
▁weight	-4632
▁January	-4633
▁Mercury	-4634
▁Pacific	-4635
▁Richard	-4636
▁Various	-4637
▁artists	-4638
▁crucial	-4639
▁liberal	-4640
▁logical	-4641
▁partial	-4642
▁quality	-4643
▁rapidly	-4644
▁reached	-4645
▁service	-4646
▁version	-4647
dependent	-4648
evolution	-4649
▁Hamilton	-4650
▁Yugoslav	-4651
▁absolute	-4652
▁attacked	-4653
▁benefits	-4654
▁complete	-4655
▁continue	-4656
▁domestic	-4657
▁identity	-4658
▁inspired	-4659
▁official	-4660
▁planning	-4661
▁previous	-4662
▁reported	-4663
▁resulted	-4664
▁services	-4665
▁subfield	-4666
▁suggests	-4667
▁Following	-4668
▁antiquity	-4669
▁asteroids	-4670
▁dominated	-4671
▁initially	-4672
▁providing	-4673
▁Parliament	-4674
▁Philosophy	-4675
▁categories	-4676
▁consisting	-4677
▁resolution	-4678
▁association	-4679
▁institution	-4680
▁interpreted	-4681
▁qualitative	-4682
▁microbiology	-4683
▁mathematician	-4684
▁microorganisms	-4685
▁electromagnetic	-4686
1}	-4687
65	-4688
PU	-4689
ai	-4690
fy	-4691
oe	-4692
wo	-4693
eor	-4694
men	-4695
pow	-4696
raw	-4697
rid	-4698
sed	-4699
▁Cz	-4700
▁Vi	-4701
▁km	-4702
ardo	-4703
ners	-4704
ords	-4705
pply	-4706
sect	-4707
that	-4708
▁179	-4709
▁184	-4710
▁187	-4711
▁Age	-4712
▁Ber	-4713
▁Dec	-4714
▁Sat	-4715
▁fer	-4716
▁mel	-4717
▁pay	-4718
▁}{\	-4719
iliar	-4720
produ	-4721
rared	-4722
views	-4723
▁Nazi	-4724
▁Wall	-4725
▁crim	-4726
▁died	-4727
▁fire	-4728
▁game	-4729
▁guid	-4730
▁inde	-4731
▁male	-4732
▁ones	-4733
▁reve	-4734
▁ring	-4735
▁scen	-4736
00,000	-4737
carbon	-4738
entric	-4739
ground	-4740
lantic	-4741
onding	-4742
phosph	-4743
▁Alpha	-4744
▁Czech	-4745
▁Front	-4746
▁Milky	-4747
▁Royal	-4748
▁Smith	-4749
▁abund	-4750
▁cloth	-4751
▁ended	-4752
▁impos	-4753
▁mitig	-4754
▁offer	-4755
▁tests	-4756
▁trees	-4757
▁views	-4758
itation	-4759
outhern	-4760
▁Austro	-4761
▁Church	-4762
▁Pierre	-4763
▁Saturn	-4764
▁Turing	-4765
▁agreed	-4766
▁chance	-4767
▁choose	-4768
▁circum	-4769
▁claims	-4770
▁crisis	-4771
▁defeat	-4772
▁extens	-4773
▁finite	-4774
▁hybrid	-4775
▁losses	-4776
▁matrix	-4777
▁negoti	-4778
▁tempor	-4779
▁Babylon	-4780
▁Belgium	-4781
▁	-4782
e	-4783
t	-4784
a	-4785
i	-4786
o	-4787
n	-4788
s	-4789
r	-4790
l	-4791
h	-4792
c	-4793
d	-4794
m	-4795
u	-4796
p	-4797
f	-4798
g	-4799
y	-4800
b	-4801
,	-4802
w	-4803
v	-4804
.	-4805
k	-4806
A	-4807
x	-4808
T	-4809
1	-4810
I	-4811
S	-4812
0	-4813
-	-4814
"	-4815
C	-4816
)	-4817
(	-4818
q	-4819
M	-4820
2	-4821
E	-4822
P	-4823
9	-4824
B	-4825
z	-4826
G	-4827
R	-4828
N	-4829
'	-4830
H	-4831
F	-4832
j	-4833
W	-4834
D	-4835
8	-4836
L	-4837
5	-4838
O	-4839
4	-4840
3	-4841
7	-4842
U	-4843
6	-4844
J	-4845
{	-4846
}	-4847
\	-4848
:	-4849
–	-4850
;	-4851
K	-4852
V	-4853
—	-4854
%	-4855
/	-4856
=	-4857
Y	-4858
Q	-4859
+	-4860
_	-4861
é	-4862
Z	-4863
^	-4864
°	-4865
?	-4866
X	-4867
&	-4868
ö	-4869
⁠	-4870
á	-4871
ο	-4872
−	-4873
α	-4874
μ	-4875
ā	-4876
ü	-4877
ī	-4878
ί	-4879
ς	-4880
ι	-4881
τ	-4882
ó	-4883
ν	-4884
ρ	-4885
~	-4886
σ	-4887
$	-4888
|	-4889
γ	-4890
κ	-4891
η	-4892
æ	-4893
è	-4894
í	-4895
·	-4896
É	-4897
ć	-4898
ō	-4899
ε	-4900
λ	-4901
!	-4902
ã	-4903
ç	-4904
ø	-4905
ē	-4906
Δ	-4907
φ	-4908
’	-4909
θ	-4910
£	-4911
έ	-4912
“	-4913
”	-4914
ū	-4915
ό	-4916
→	-4917
>	-4918
ä	-4919
ñ	-4920
ò	-4921
ă	-4922
Č	-4923
ł	-4924
ə	-4925
β	-4926
ω	-4927
ύ	-4928
‐	-4929
×	-4930
ê	-4931
ő	-4932
š	-4933
ș	-4934
δ	-4935
χ	-4936
ا	-4937
′	-4938
≈	-4939
*	-4940
à	-4941
å	-4942
ï	-4943
ý	-4944
ś	-4945
ά	-4946
ή	-4947
π	-4948
ل	-4949
ی	-4950
ḗ	-4951
ṃ	-4952
ṣ	-4953
ἀ	-4954
ἄ	-4955
ἰ	-4956
‒	-4957
⁄	-4958
ꞌ	-4959
<	-4960
]	-4961
§	-4962
Á	-4963
Í	-4964
â	-4965
ë	-4966
î	-4967
ô	-4968
õ	-4969
ú	-4970
ė	-4971
ě	-4972
ń	-4973
ž	-4974
ʻ	-4975
Λ	-4976
Ψ	-4977
ξ	-4978
υ	-4979
ء	-4980
ب	-4981
ج	-4982
ر	-4983
ك	-4984
م	-4985
Ḥ	-4986
Ṭ	-4987
ẓ	-4988
Ἀ	-4989
ἱ	-4990
ἵ	-4991
ὰ	-4992
ὴ	-4993
ῑ	-4994
ῶ	-4995
